#version: 0.2
Ã ¼
e r
i n
a l
Ä ±
Ġ d
Ġ s
i r
a s
o n
i l
l a
e s
er i
e n
Å Ł
Ġ b
o k
y on
i k
i z
as yon
i y
Ã ¶
Ġ g
Ġ |
Ä Ł
e v
a k
i s
is k
e k
R isk
t a
Ġ p
u m
al iz
d ir
u r
eri o
l en
Ġ Risk
l in
lin ik
e l
L ok
a r
Ġ in
es i
Ġ Lok
i v
f la
e y
K linik
fla m
Ġin flam
l g
Ġd ur
Ġdur um
Ġ y
Ã¼ k
t Ä±
Ġs ev
iy esi
Ġsev iyesi
aliz asyon
ĠLok alizasyon
d e
g iv
in giv
ingiv al
Ġd Ã¼
on t
Ġs a
s t
r e
Ġg ingival
e t
o l
ok u
Ã¶ lg
b il
Ġ il
la r
Ã §
t e
in de
Ġ o
a n
Ã¶lg es
d ont
erio dont
eriodont al
Ġ m
Ã¼ l
Ġd oku
bil ir
len m
ak t
e ÄŁ
a t
Ġb Ã¶lges
Ġinflam asyon
n m
i ÅŁ
erio r
al t
ĠbÃ¶lges inde
Ã¼ st
Ġsa ÄŁ
il m
d a
z ey
Ġp eriodontal
Ġ iz
Ġy Ã¼k
Ġd eÄŁ
ek te
ekte dir
Ã¼ re
Ġs ol
ĠdÃ¼ ÅŁ
Ġ h
len dir
t ir
u ar
at uar
Ġ k
r ta
Ġo rta
Ġ ar
er lendir
ĠdÃ¼ÅŁ Ã¼k
Ġil e
Ġinflam atuar
s ek
ĠyÃ¼k sek
ÅŁ Ä±
Ġs Ã¼re
Ġg Ã¶
ĠdÃ¼ zey
Ġ D
k il
Ġb ir
Ä± ÅŁ
lar Ä±
Ġar tÄ±
Ġ v
Ġ et
ĠsÃ¼re Ã§
e bilir
m e
Ġet kil
s as
as sas
Ġh assas
Ġp la
Ġ u
ĠartÄ± ÅŁÄ±
tÄ± r
Ä±ÅŁ tÄ±r
iy et
Ġhassas iyet
lenm ektedir
o f
Ġetkil ey
i m
ĠdeÄŁ erlendir
k en
Ġ ta
Ġu y
iÅŁ tir
k Ã¼l
as kÃ¼l
Ġv askÃ¼l
ĠvaskÃ¼l er
p ta
Ġsa pta
nm Ä±ÅŁtÄ±r
Ġsapta nmÄ±ÅŁtÄ±r
Ġ an
asyon u
b l
Ġta bl
Ġtabl o
l u
i dir
eri y
Ġdoku larÄ±
i t
ev re
Ġ er
Ġer ken
Ä± n
Ä± r
Ġb iy
of ilm
Ġbiy ofilm
Ã¶ n
l e
o st
ost erior
m Ã¼l
Ġ ak
Ã¼ mÃ¼l
er aliz
in eraliz
Ġm ineraliz
Ġpla k
Ġak Ã¼mÃ¼l
Ġmineraliz e
ĠakÃ¼mÃ¼l asyonu
Ġ evre
n eri
Ã ĸ
Ġ Ãĸ
ĠÃĸ neri
Ġb akt
ik im
Ġbir ikim
eriy el
Ġbakt eriyel
Ġbirikim i
t erior
Ġetkiley en
um lu
Ġuy umlu
Ġil eri
ĠgÃ¶ z
u t
ik l
Ġp osterior
Ġan terior
Ġiz lenmektedir
c i
al Ä±
r o
d Ä±r
r ol
ont rol
Ġ f
Ġ Ã¶n
Ġ P
c ut
ev cut
el idir
Ġ Klinik
l i
Ġk ontrol
l Ä±
er ek
Ġ a
ta bil
Ġ akt
Ġy an
Ġyan Ä±
u n
Ġb u
ĠdeÄŁ iÅŁ
Ġg erek
i te
p it
ĠD oku
i ci
Ã¼ n
lar ak
Ġo larak
ĠyanÄ± tÄ±
i f
Ġs tabil
lg u
Ġbu lgu
le m
ĠP eriodontal
r es
alÄ± dÄ±r
t ur
lenm elidir
a bilir
Ġbulgu lar
ĠdeÄŁerlendir ilm
Ġ Ã§
Ġiz lem
Ġakt iv
Ġ B
s a
ĠLok al
lenm iÅŁtir
ĠgÃ¶z lenmiÅŁtir
ĠdeÄŁerlendirilm iÅŁtir
eÄŁ erlendir
ĠD eÄŁerlendir
ĠDeÄŁerlendir me
Ã¶lges el
Ä± m
Ġb ak
Ġbak Ä±m
B Ã¶lg
T es
Ġ Tes
ĠdÃ¼zey i
BÃ¶lg e
ĠTes pit
ĠdeÄŁiÅŁ ikl
Ġp ro
ĠÃ¶n er
Ã¶ r
t ek
es tek
k at
Ġd ik
Ġdik kat
ĠdeÄŁerlendir me
l er
ikl er
ĠdeÄŁiÅŁikl ikler
Ġm evcut
Ġmevcut tur
Ġb el
Ġbel ir
l ok
lok al
akt Ã¶r
Ġf aktÃ¶r
Ġ M
Ġd en
Ġden g
Ġ K
Ġk linik
Ġgerek tir
nm alÄ±dÄ±r
ĠB Ã¶lgesel
Ġ lokal
a p
Ä± k
Ġg e
nm a
u l
Ġ t
l ey
ley ici
Ġpro g
al e
Ġpla n
Ä±n d
u ÅŁ
Ġ te
la nmalÄ±dÄ±r
a m
Ġiz lenmelidir
b iy
ik ro
biy al
ikro biyal
Ã¼ zey
Ġaktiv ite
Ġ re
ĠM evcut
d i
ÄŁ inde
di ÄŁinde
Ġy et
Ġyet er
Ġin c
Ġy Ã¼zey
Ã¼ z
Ġm ikrobiyal
l Ã¼
ĠfaktÃ¶r ler
er ebilir
st erebilir
ĠgÃ¶ sterebilir
u nma
la bilir
er in
Ġy ak
Ä±n da
Ġstabil ite
ÅŁÄ± m
estek leyici
il ir
ĠÃ¶ner ilir
un da
h ale
Ã¼ da
Ġm Ã¼da
ĠmÃ¼da hale
Ä±nd an
Ġa Ã§
Ã¼l ebilir
d ur
v i
da vi
Ġte davi
Ġ e
a y
akt if
Ġ S
p t
Ġk ap
t il
Ġbelir til
Ġbelirtil eri
ĠgÃ¶z lenmektedir
Ġ al
Ġ Y
Ġdikkat li
Ġre aktif
lar da
Ġdoku larda
e m
ĠgÃ¶ r
ul m
n abilir
la nabilir
Ġyeter li
Ã§ ici
Ġge Ã§ici
Ġ G
v unma
Ġsa vunma
a ÄŁ
Ġb aÄŁ
s unda
le ÅŁ
la ÅŁÄ±m
Ġyak laÅŁÄ±m
l ik
Ġv a
Ġo labilir
res yon
i p
m ektedir
l idir
s Ä±ndan
Ä± sÄ±ndan
Ġgerektir ir
ĠaÃ§ Ä±sÄ±ndan
Ġt ak
yon el
as it
Ġ z
ĠD estekleyici
o ÄŁ
e len
Ġinc elen
Ġincelen diÄŁinde
Ä °
Ġetkiley ebilir
da pt
Ġa dapt
t Ã¼n
Ã¼ tÃ¼n
Ġb Ã¼tÃ¼n
y u
e ÅŁ
Ġ iy
il eÅŁ
Ġiy ileÅŁ
ĠsÃ¼re ci
k lÄ±
l eri
Ġan aliz
Ġ Ä°
lÄ± k
larÄ± n
s el
ey sel
Ġbir eysel
ĠÃ§ Ä±k
o z
Ġb oz
erin e
iz lik
t res
Ġs tres
m al
iz mal
ek an
Ġm ekan
izmal ar
Ġmekan izmalar
Ġil iÅŁ
ĠiliÅŁ kil
Ġar alÄ±
Ġstabil iz
Ġprog resyon
en li
Ã¼z enli
o r
el i
Ã¼re Ã§
ĠG ingival
r am
Ġprog ram
Ġprogram Ä±
i j
y en
Ġh ij
Ġhij yen
g u
Ġuy gu
Ġuygu lanmalÄ±dÄ±r
Ġgerektir en
ak Ä±n
Ġtak ip
r of
es yonel
rof esyonel
ĠD Ã¼zenli
ÄŁ Ä±
ilm ektedir
ĠÃ¶ner ilmektedir
r isk
Ġ risk
sa m
Ġplan lanmalÄ±dÄ±r
Ġkap asit
Ġkapasit esi
Ġ U
ĠfaktÃ¶rler e
ĠY akÄ±n
s ol
ĠS Ã¼reÃ§
ĠiyileÅŁ me
Ġd estek
Ġdestek lenmelidir
Ġkontrol Ã¼
Ġadapt asyon
sa ÄŁ
lÃ¼ ÄŁ
ĠbÃ¼tÃ¼n lÃ¼ÄŁ
Ġdeng e
da dÄ±r
Ġtablo yu
Ġd Ã¶n
ev res
ĠÃ§ evres
ĠÃ§evres el
m uÅŁ
Ġ ol
Ġdoku sunda
uÅŁ muÅŁ
Ġol uÅŁmuÅŁ
ĠoluÅŁmuÅŁ tur
Ġaktiv asyon
Ġmekanizmalar Ä±nda
j ik
m Ä±ÅŁtÄ±r
o jik
y ol
Ġ Ã¼z
Ġs Ä±n
iz yol
Ä±r larÄ±n
Ġf izyol
pit el
ĠyÃ¼zey inde
ĠÃ§Ä±k mÄ±ÅŁtÄ±r
ĠÃ¼z erine
ĠsÄ±n Ä±rlarÄ±n
Ġfizyol ojik
Ã¼ nm
Ġakt if
ĠgÃ¶r Ã¼nm
ĠiliÅŁkil i
ĠgÃ¶rÃ¼nm ektedir
Ġstabilite de
ulm a
Ġboz ulma
j in
es izlik
ar jin
Ġdeng esizlik
arjin al
g in
m iÅŁtir
Ġbelir gin
leÅŁ miÅŁtir
Ġbelirgin leÅŁmiÅŁtir
ĠsaÄŁ lanabilir
ek mektedir
ĠartÄ± ÅŁ
Ġhassasiyet inde
ĠÃ§ ekmektedir
Ġe pitel
Ġm arjinal
ĠbÃ¶lges el
Ġu z
Ġ E
ĠyÃ¼zey el
Ġstabiliz asyon
D oku
Ä± sa
ĠgÃ¶r Ã¼lebilir
l Ã¼k
d eli
Ġplan lanabilir
Ġva deli
il ebilir
de de
Ġva dede
ulm alÄ±dÄ±r
Ä± fla
ay Ä±fla
Ġz ayÄ±fla
Lok al
Ġil er
Ġstabil it
oÄŁ un
Ġg el
ĠdÃ¼ÅŁ Ã¼n
ĠdÃ¼ÅŁÃ¼n Ã¼lebilir
r el
Ġp ar
ey i
et rel
am etrel
Ġpar ametrel
Ġparametrel er
s i
ĠaralÄ± klÄ±
Ġgerek lidir
Ġdurum dur
b Ä±
z al
Ġd ir
Ġa zal
Ġdir en
Ġazal abilir
n a
Ġ alÄ±
tÄ± na
Ġal tÄ±na
ontrol lÃ¼
t ok
ol Ã¼
Ġpro tok
Ġprotok olÃ¼
sam lÄ±
i Ã§
Ġ iÃ§
g r
esi f
gr esif
Ġrisk i
c ik
ilm em
tir ilmem
Ġge cik
tirilmem elidir
Ġgecik tirilmemelidir
Ġd erin
Ġderin leÅŁ
ĠP rofesyonel
k an
Ä±ÅŁ kan
Ġal Ä±ÅŁkan
ĠalÄ±ÅŁkan lÄ±k
ĠÃ¶n Ã¼n
ĠÄ° leri
ĠK ontrollÃ¼
ĠdeÄŁerlendirme de
u ay
en e
uay ene
Ġd Ä±ÅŁ
on u
il diÄŁinde
a z
Ġf az
ĠU z
Ġfaz dadÄ±r
ĠdeÄŁerlendir m
Ġe d
en ebilir
Ġetkil enebilir
o d
r ul
t u
Ġd oÄŁ
rul tu
ĠdoÄŁ rultu
ĠdoÄŁrultu sunda
s u
e me
el eme
Ġinc eleme
ĠbÃ¼tÃ¼nlÃ¼ÄŁ Ã¼
ĠÃ¶n em
ĠfaktÃ¶r leri
P eriodontal
ar klÄ±
Ġf arklÄ±
ĠfarklÄ± lÄ±k
Ġg eri
B Ã¶lgesel
p osterior
an terior
Ġ A
a tÄ±
k larÄ±
ĠaralÄ± klarÄ±
Ġuz atÄ±
ĠuzatÄ± labilir
r ken
H a
f if
Ha fif
in im
Ġd estekleyici
Ġyeter lidir
inim al
s er
v at
on ser
vat if
onser vatif
len ebilir
ĠÃ¶n lenebilir
ĠE rken
Ġs ey
Ġb ek
Ġsey ir
Ġbek lenmektedir
Ġy Ã¶n
et ilebilir
Ġt ip
ĠyÃ¶n etilebilir
Ġtip i
Ġ Hafif
ĠK onservatif
R ut
ĠM inimal
Rut in
c u
u yu
ut ulmalÄ±dÄ±r
Ġt utulmalÄ±dÄ±r
Ġplan da
or uyu
oruyu cu
g un
y gun
ĠS tabil
ĠE v
iz asyonu
Ġo pt
im izasyonu
Ġopt imizasyonu
ĠK Ä±sa
z en
ĠdÃ¼ zen
lenm esi
Ã¼n lÃ¼k
larÄ±n Ä±n
ĠalÄ±ÅŁkanlÄ±k larÄ±nÄ±n
ĠdÃ¼zen lenmesi
Ġ Rutin
ĠdeÄŁiÅŁikl ik
Ġuz un
ĠK oruyucu
y abilir
ĠdokularÄ± n
Ġyak Ä±ndan
ĠzayÄ±fla yabilir
d Ä±
dir de
Ġk or
unma dÄ±
Ġtak dirde
ĠU ygun
ĠderinleÅŁ ebilir
Ġkor unmadÄ±
ĠkorunmadÄ± ÄŁÄ±
k si
s e
y a
on ksi
um uÅŁ
Ġorta ya
Ġetkil er
Ġf onksi
ler se
Ġdeng esi
ĠÃ§Ä±k abilir
Ġiler lerse
umuÅŁ ak
Ġfonksi yonel
ĠB asit
eriy od
ĠbÃ¼tÃ¼n lÃ¼k
eriyod ik
Ġh ale
ĠaÃ§ Ä±k
Ġgel ebilir
ĠG Ã¼nlÃ¼k
Ġparametreler le
e de
f lenmelidir
Ġh ede
ĠyaklaÅŁÄ±m Ä±
Ġhede flenmelidir
m izlik
Ġte mizlik
o s
o me
z Ä±
ta zÄ±
Ġh ome
Ġboz abilir
os tazÄ±
Ġhome ostazÄ±
a bÄ±
c ev
Ġ cev
Ġy oÄŁun
ĠdeÄŁiÅŁ ebilir
ĠbaÄŁ lÄ±
Ġcev abÄ±
ta bilir
ĠzayÄ±fla tabilir
Ġstabilit eyi
flam atuar
g al
m a
al gal
Ġd algal
an ma
Ġk Ä±sa
Ġstabilit esi
Ġdalgal anma
Ġs Ã¶
Ġk onu
ap samlÄ±
su dur
ĠsÃ¶ z
Ġkonu sudur
Ġdiren ci
Ġadapt asyonu
Ġp rofesyonel
Ġgerek mektedir
Ġdeng eyi
ĠalÄ± nmalÄ±dÄ±r
m an
z sa
er il
ĠgÃ¶ re
Ġv eril
le me
ĠgÃ¶z lem
nma zsa
Ġiler leme
ĠalÄ± nmazsa
ĠdeÄŁerlendirm esi
Ġveril erine
r it
rit ik
g resyon
in e
ar ÅŁÄ±
Ġk arÅŁÄ±
ro gresyon
Ġa gresif
Ġgerek ebilir
Ġrisk ine
ĠdeÄŁerlendir ildiÄŁinde
ĠiÃ§ in
n s
o ta
iy eli
ak ta
Ġp ota
iÅŁ me
Ġta ÅŁÄ±m
ler leyici
Ġgel iÅŁme
ns iyeli
akta dÄ±r
Ġpota nsiyeli
ĠtaÅŁÄ±m aktadÄ±r
Ġdiren Ã§
Ġ ÅŁ
il lendir
ek illendir
len erek
ilm elidir
Ġiz lenerek
ĠÅŁ ekillendir
ĠÅŁekillendir ilmelidir
Ġk ay
ĠP eriyodik
Ġkay bÄ±
Ã¼n Ã¼
ĠbÃ¼tÃ¼nlÃ¼ÄŁ Ã¼nÃ¼
Ġs Ä±r
as Ä±nda
ÄŁÄ± z
ĠiÃ§ i
ĠsÄ±r asÄ±nda
n dur
lu ndur
Ġbu lundur
ĠÃ¶nÃ¼n de
Ġbulundur ulmalÄ±dÄ±r
ĠY oÄŁun
ĠY umuÅŁak
Ġstabiliz e
Ġed ilebilir
ĠK apsamlÄ±
a h
lu dur
un ludur
Ġkap samlÄ±
Ġz or
ĠdÃ¶n em
ah a
Ġzor unludur
yon larÄ±
ak si
Ġm uayene
Ġre aksi
Ġkap sam
Ġreaksi yonlarÄ±
Ġkapsam Ä±nda
ĠK ritik
ĠS Ä±k
ĠP rogresyon
l m
r Ä±
Ġs Ä±k
ĠartÄ± rÄ±
lÄ± ÄŁÄ±
ĠUz man
lm alÄ±dÄ±r
ĠsÄ±k lÄ±ÄŁÄ±
ĠartÄ±rÄ± lmalÄ±dÄ±r
Ġinceleme de
ĠA gresif
M evcut
Ä± ÄŁ
Ä±nd Ä±ÄŁ
Ġal Ä±ndÄ±ÄŁ
ĠÃ¶nÃ¼n e
ĠalÄ±ndÄ±ÄŁ Ä±nda
ĠD aha
Ġbulgu larÄ±
ĠUz un
ĠB u
t Ã¼
Ã¼n tÃ¼
Ã¶r Ã¼ntÃ¼
Ġanaliz i
Ġdikkat le
ĠÄ° lerleyici
ĠÃ¶nem lidir
Ġanaliz inde
Ġy ap
Ġed ildiÄŁinde
Ġyap Ä±
tir ebilir
ĠderinleÅŁ tirebilir
es inde
ĠdeÄŁerlendirm esinde
m esi
ĠiyileÅŁ mesi
n flamatuar
an la
ĠyanÄ± t
ĠdeÄŁiÅŁ im
am anla
Ġz amanla
ĠÄ° nflamatuar
c unda
Ġs onu
Ġsonu cunda
u y
Ġd uy
ar lÄ±
Ġduy arlÄ±
ĠduyarlÄ± dÄ±r
ĠÃ§ evre
Ã¼ ÅŁ
ĠdÃ¶n Ã¼ÅŁ
ĠdÃ¶nÃ¼ÅŁ lÃ¼
d Ã¼
r Ã¼lebilir
ĠdÃ¶n dÃ¼
ĠdÃ¶ndÃ¼ rÃ¼lebilir
Ġdurum dadÄ±r
Ġaktiv e
Ġmekanizmalar Ä±
ĠiliÅŁkil idir
ĠalÄ±ÅŁkanlÄ±k larÄ±
d en
Ġdoku su
ken lik
ĠdeÄŁiÅŁ kenlik
ĠfaktÃ¶rler den
Ġar z
Ġet mektedir
iy e
de bilir
Ġm od
if iye
Ġe debilir
Ġmod ifiye
ĠdeÄŁerlendirilm elidir
G ingival
A ÄŁÄ±z
M uayene
G Ã¶rÃ¼ntÃ¼
ĠA ÄŁÄ±z
ĠG Ã¶rÃ¼ntÃ¼
ĠM uayene
d oku
g ingival
S Ã¼reÃ§
D estekleyici
m ikrobiyal
b Ã¶lgesel
in flamatuar
D Ã¼zenli
re aktif
y Ã¼zey
yÃ¼zey el
e pitel
m arjinal
Y akÄ±n
U z
K ontrollÃ¼
B u
Ä° leri
Ä° lerleyici
P rofesyonel
Y umuÅŁak
Uz un
P eriyodik
M inimal
G Ã¼nlÃ¼k
U ygun
B asit
D aha
K apsamlÄ±
S tabil
E rken
E v
Uz man
A gresif
P rogresyon
K Ä±sa
K oruyucu
K onservatif
K ritik
S Ä±k
Y oÄŁun
